#include "lighting_model.h"
#include <Arduino.h>

const unsigned char lighting_model_tflite[] PROGMEM = {
0x1c, 0x00, 0x00, 0x00, 0x54, 0x46, 0x4c, 0x33, 0x14, 0x00, 0x20, 0x00, 0x1c, 0x00, 0x18, 0x00, 0x14, 0x00, 0x10, 0x00, 0x0c, 0x00, 0x00, 0x00, 0x08, 0x00, 0x04, 0x00, 0x14, 0x00, 0x00, 0x00, 0x1c, 0x00, 0x00, 0x00, 0x98, 0x00, 0x00, 0x00, 0xf0, 0x00, 0x00, 0x00, 0xbc, 0x10, 0x00, 0x00, 0xcc, 0x10, 0x00, 0x00, 0x14, 0x17, 0x00, 0x00, 0x03, 0x00, 0x00, 0x00, 0x01, 0x00, 0x00, 0x00, 0x10, 0x00, 0x00, 0x00, 0x00, 0x00, 0x0a, 0x00, 0x10, 0x00, 0x0c, 0x00, 0x08, 0x00, 0x04, 0x00, 0x0a, 0x00, 0x00, 0x00, 0x0c, 0x00, 0x00, 0x00, 0x1c, 0x00, 0x00, 0x00, 0x3c, 0x00, 0x00, 0x00, 0x0f, 0x00, 0x00, 0x00, 0x73, 0x65, 0x72, 0x76, 0x69, 0x6e, 0x67, 0x5f, 0x64, 0x65, 0x66, 0x61, 0x75, 0x6c, 0x74, 0x00, 0x01, 0x00, 0x00, 0x00, 0x04, 0x00, 0x00, 0x00, 0x90, 0xff, 0xff, 0xff, 0x0c, 0x00, 0x00, 0x00, 0x04, 0x00, 0x00, 0x00, 0x08, 0x00, 0x00, 0x00, 0x6f, 0x75, 0x74, 0x70, 0x75, 0x74, 0x5f, 0x30, 0x00, 0x00, 0x00, 0x00, 0x01, 0x00, 0x00, 0x00, 0x04, 0x00, 0x00, 0x00, 0xf2, 0xef, 0xff, 0xff, 0x04, 0x00, 0x00, 0x00, 0x0e, 0x00, 0x00, 0x00, 0x6b, 0x65, 0x72, 0x61, 0x73, 0x5f, 0x74, 0x65, 0x6e, 0x73, 0x6f, 0x72, 0x5f, 0x35, 0x00, 0x00, 0x02, 0x00, 0x00, 0x00, 0x34, 0x00, 0x00, 0x00, 0x04, 0x00, 0x00, 0x00, 0xdc, 0xff, 0xff, 0xff, 0x0f, 0x00, 0x00, 0x00, 0x04, 0x00, 0x00, 0x00, 0x13, 0x00, 0x00, 0x00, 0x43, 0x4f, 0x4e, 0x56, 0x45, 0x52, 0x53, 0x49, 0x4f, 0x4e, 0x5f, 0x4d, 0x45, 0x54, 0x41, 0x44, 0x41, 0x54, 0x41, 0x00, 0x08, 0x00, 0x0c, 0x00, 0x08, 0x00, 0x04, 0x00, 0x08, 0x00, 0x00, 0x00, 0x0e, 0x00, 0x00, 0x00, 0x04, 0x00, 0x00, 0x00, 0x13, 0x00, 0x00, 0x00, 0x6d, 0x69, 0x6e, 0x5f, 0x72, 0x75, 0x6e, 0x74, 0x69, 0x6d, 0x65, 0x5f, 0x76, 0x65, 0x72, 0x73, 0x69, 0x6f, 0x6e, 0x00, 0x10, 0x00, 0x00, 0x00, 0xc8, 0x0f, 0x00, 0x00, 0xc0, 0x0f, 0x00, 0x00, 0x90, 0x0f, 0x00, 0x00, 0x78, 0x0d, 0x00, 0x00, 0x68, 0x05, 0x00, 0x00, 0x54, 0x05, 0x00, 0x00, 0x24, 0x05, 0x00, 0x00, 0xd4, 0x04, 0x00, 0x00, 0x44, 0x04, 0x00, 0x00, 0xb4, 0x00, 0x00, 0x00, 0xac, 0x00, 0x00, 0x00, 0xa4, 0x00, 0x00, 0x00, 0x9c, 0x00, 0x00, 0x00, 0x94, 0x00, 0x00, 0x00, 0x74, 0x00, 0x00, 0x00, 0x04, 0x00, 0x00, 0x00, 0xae, 0xf0, 0xff, 0xff, 0x04, 0x00, 0x00, 0x00, 0x60, 0x00, 0x00, 0x00, 0x10, 0x00, 0x00, 0x00, 0x00, 0x00, 0x00, 0x00, 0x08, 0x00, 0x0e, 0x00, 0x08, 0x00, 0x04, 0x00, 0x08, 0x00, 0x00, 0x00, 0x10, 0x00, 0x00, 0x00, 0x24, 0x00, 0x00, 0x00, 0x00, 0x00, 0x06, 0x00, 0x08, 0x00, 0x04, 0x00, 0x06, 0x00, 0x00, 0x00, 0x04, 0x00, 0x00, 0x00, 0x00, 0x00, 0x00, 0x00, 0x0c, 0x00, 0x18, 0x00, 0x14, 0x00, 0x10, 0x00, 0x0c, 0x00, 0x04, 0x00, 0x0c, 0x00, 0x00, 0x00, 0x4e, 0xca, 0xc4, 0x19, 0x80, 0xca, 0x81, 0x9f, 0x02, 0x00, 0x00, 0x00, 0x02, 0x00, 0x00, 0x00, 0x04, 0x00, 0x00, 0x00, 0x06, 0x00, 0x00, 0x00, 0x32, 0x2e, 0x31, 0x39, 0x2e, 0x30, 0x00, 0x00, 0x1a, 0xf1, 0xff, 0xff, 0x04, 0x00, 0x00, 0x00, 0x10, 0x00, 0x00, 0x00, 0x31, 0x2e, 0x35, 0x2e, 0x30, 0x00, 0x00, 0x00, 0x00, 0x00, 0x00, 0x00, 0x00, 0x00, 0x00, 0x00, 0xd8, 0xea, 0xff, 0xff, 0xdc, 0xea, 0xff, 0xff, 0xe0, 0xea, 0xff, 0xff, 0xe4, 0xea, 0xff, 0xff, 0x46, 0xf1, 0xff, 0xff, 0x04, 0x00, 0x00, 0x00, 0x80, 0x03, 0x00, 0x00, 0x09, 0x4e, 0x41, 0xbf, 0xd6, 0xd9, 0xd4, 0x3e, 0xfe, 0x74, 0xcf, 0xbe, 0xdf, 0x51, 0x5d, 0x3e, 0x4c, 0x0a, 0x7d, 0x3e, 0x5f, 0x28, 0x89, 0x3e, 0xd5, 0xd4, 0xc3, 0x3e, 0x3c, 0x93, 0x40, 0xbf, 0xf8, 0x38, 0xc6, 0x3e, 0xf7, 0xd1, 0x32, 0xbf, 0x7d, 0xc2, 0x0f, 0xbe, 0xbe, 0x79, 0xce, 0x3e, 0x71, 0x9b, 0x20, 0x3b, 0x00, 0xb4, 0x17, 0x3e, 0x57, 0x9d, 0x9d, 0xbf, 0x46, 0x2d, 0x91, 0x3d, 0xc2, 0x00, 0xf6, 0xbe, 0x8b, 0x41, 0xe7, 0xbc, 0x50, 0x3f, 0x81, 0xbc, 0xa0, 0x99, 0x8e, 0xbc, 0x5b, 0xd5, 0x49, 0xbe, 0xf6, 0xfd, 0x89, 0xbf, 0x2e, 0x11, 0x73, 0xbe, 0x12, 0x02, 0xcd, 0xbe, 0xab, 0x76, 0x19, 0xbe, 0xa4, 0xce, 0xa7, 0x3e, 0xc3, 0x3e, 0x56, 0x3e, 0x57, 0xfe, 0x52, 0x3e, 0xbf, 0x67, 0xe6, 0xbe, 0x47, 0x67, 0xf3, 0xbc, 0xe3, 0x7d, 0x3d, 0xbf, 0x87, 0x92, 0x17, 0x3e, 0xa6, 0x72, 0xf1, 0x3e, 0xde, 0x7a, 0xb0, 0x3e, 0xde, 0x38, 0xa0, 0x3e, 0xb8, 0x0a, 0x85, 0x3f, 0xa6, 0x93, 0x96, 0x3e, 0xc6, 0xd0, 0xaf, 0xbe, 0xa5, 0x4f, 0x82, 0xbd, 0x78, 0x1a, 0x63, 0xbc, 0xc7, 0x0d, 0xde, 0x3e, 0xf8, 0xa3, 0x1f, 0x3d, 0x22, 0xae, 0x71, 0xbf, 0x56, 0x47, 0x1d, 0xbf, 0x79, 0xf0, 0x58, 0xbf, 0x27, 0x7f, 0xd8, 0x3e, 0xeb, 0x70, 0x43, 0x3e, 0x09, 0xf0, 0x94, 0xbe, 0xc8, 0x1e, 0xa9, 0x3b, 0xe3, 0x89, 0x4f, 0xbf, 0x54, 0x3f, 0xc0, 0x3d, 0xab, 0x85, 0x09, 0xbf, 0x7f, 0xce, 0x11, 0x3c, 0xf7, 0xe3, 0x6f, 0xbe, 0xea, 0x1c, 0x75, 0xbe, 0xa2, 0xbc, 0xf1, 0xbd, 0x17, 0x58, 0xaf, 0xbf, 0x5c, 0xba, 0x3a, 0xbd, 0x5b, 0x61, 0x45, 0xbf, 0xa1, 0x8b, 0xb0, 0xba, 0xc6, 0x28, 0x53, 0x3e, 0xb0, 0x41, 0x4f, 0x3e, 0x5c, 0x72, 0x53, 0x3e, 0x11, 0x9d, 0x1f, 0xbf, 0x0c, 0x8d, 0xa1, 0x3e, 0x9c, 0x70, 0x5b, 0xbe, 0x27, 0x67, 0x46, 0xbe, 0x23, 0x96, 0x06, 0xbe, 0x15, 0xcf, 0xbe, 0xbe, 0x50, 0x30, 0xb4, 0x3d, 0x01, 0x4a, 0x8a, 0xbe, 0x97, 0x60, 0x83, 0xbe, 0x93, 0x4a, 0xb5, 0x3a, 0x73, 0x57, 0x1b, 0xbe, 0xc0, 0x7f, 0xcb, 0xbd, 0x70, 0x56, 0xd9, 0xbd, 0x2c, 0x14, 0x8f, 0xbd, 0x63, 0x6e, 0x06, 0xbf, 0x12, 0x76, 0xee, 0x3e, 0x0a, 0x0d, 0x40, 0xbf, 0x4f, 0xe4, 0x2b, 0xbd, 0xa3, 0x59, 0xde, 0x3d, 0x22, 0x4c, 0xb0, 0x3e, 0x76, 0x4d, 0x12, 0xbe, 0x51, 0x5a, 0xb6, 0xbe, 0x58, 0x74, 0x7a, 0x3d, 0x17, 0xe1, 0x58, 0xbf, 0xdf, 0x77, 0x7c, 0x3e, 0x1e, 0xfd, 0x25, 0x3e, 0x96, 0x30, 0x55, 0xbe, 0x09, 0xf8, 0x96, 0x3e, 0x40, 0x5a, 0xb4, 0x3c, 0xde, 0x18, 0x84, 0xbe, 0xa0, 0x99, 0xa4, 0xbe, 0x00, 0x7c, 0xcc, 0x3b, 0xa8, 0x71, 0xc2, 0xbe, 0x70, 0xf1, 0xce, 0xbc, 0xb8, 0x86, 0x97, 0xbe, 0x7e, 0x91, 0x00, 0xbf, 0xb8, 0x20, 0x11, 0x3f, 0x16, 0x83, 0x04, 0x3c, 0x80, 0x58, 0x70, 0xbd, 0xf7, 0x8e, 0x69, 0x3d, 0x31, 0x8f, 0xc9, 0xbe, 0x3b, 0x02, 0xe9, 0xbd, 0xdd, 0x0c, 0x8d, 0xbf, 0x15, 0xc3, 0xd7, 0xbe, 0x07, 0x08, 0x67, 0xbf, 0xef, 0xcd, 0xf1, 0x3d, 0x59, 0x82, 0x77, 0xbe, 0xe4, 0x2a, 0xee, 0x3e, 0x60, 0x57, 0x24, 0xbb, 0x8f, 0xce, 0x27, 0xbf, 0x8e, 0x93, 0xe0, 0x3e, 0xd0, 0xbd, 0x2a, 0xbf, 0x6b, 0x6c, 0x32, 0xbe, 0x44, 0x20, 0x1c, 0xbe, 0x68, 0xf0, 0x56, 0x3e, 0x32, 0x5e, 0xd0, 0xbd, 0x68, 0x12, 0xd7, 0xbe, 0x49, 0xde, 0x81, 0x3e, 0x5d, 0x79, 0x9c, 0xbe, 0xba, 0x38, 0x32, 0xbe, 0x11, 0xbc, 0xa8, 0x3e, 0xdb, 0x83, 0x8a, 0x3e, 0xc4, 0x7e, 0xb6, 0x3e, 0x25, 0x30, 0x31, 0x3f, 0xd8, 0x46, 0x52, 0x3e, 0xba, 0xf9, 0x39, 0x3f, 0xa1, 0x4a, 0xcc, 0x3c, 0xf8, 0xfa, 0x05, 0x3f, 0x7e, 0x76, 0xc2, 0x3e, 0x81, 0xd1, 0xe8, 0x3e, 0x69, 0xea, 0x18, 0x3d, 0x12, 0x97, 0x25, 0x3e, 0xef, 0xb1, 0x41, 0xbf, 0x8c, 0x7a, 0x4a, 0xbe, 0xb0, 0xfb, 0x89, 0x3d, 0x34, 0x4f, 0xee, 0x3d, 0xd4, 0xad, 0x96, 0x3e, 0x3d, 0xf4, 0x01, 0xbf, 0x12, 0x20, 0x38, 0xbe, 0xee, 0xbc, 0x84, 0xbf, 0x2b, 0x27, 0xba, 0xbe, 0xf1, 0x7b, 0xc1, 0x3e, 0xf5, 0x0f, 0x53, 0xbe, 0x0b, 0x9f, 0x51, 0x3d, 0xfb, 0x4b, 0xb5, 0xbe, 0x2a, 0x68, 0x78, 0x3e, 0x3f, 0xc0, 0x20, 0xbf, 0xaf, 0x6b, 0x12, 0xbe, 0xad, 0xee, 0x25, 0xbf, 0x6b, 0xc6, 0xbc, 0xbe, 0x38, 0x9e, 0x25, 0xbf, 0x8c, 0xb0, 0x07, 0xbf, 0x10, 0xc2, 0xcc, 0x3d, 0x4e, 0xbd, 0x1d, 0xbf, 0x4f, 0x49, 0x1c, 0x3e, 0x05, 0x04, 0xa5, 0x3d, 0x29, 0xbc, 0xc5, 0x3e, 0xc9, 0x19, 0xab, 0x3d, 0x1b, 0xfa, 0x6c, 0x3f, 0x62, 0x90, 0xe3, 0x3e, 0x17, 0x72, 0x28, 0x3f, 0xf4, 0xb3, 0x44, 0x3e, 0x23, 0xd5, 0x32, 0x3e, 0xc5, 0x36, 0x60, 0x3e, 0x78, 0x2b, 0x6c, 0x3e, 0x6d, 0xbb, 0x0a, 0xbf, 0x57, 0xae, 0xb6, 0x3e, 0x10, 0x8c, 0xe5, 0xbe, 0x6f, 0x26, 0x5f, 0xbe, 0x66, 0xbc, 0x18, 0x3e, 0xba, 0x08, 0x87, 0xbd, 0x73, 0x06, 0x1e, 0x3b, 0x47, 0x64, 0xc6, 0xbd, 0xfe, 0xfe, 0x81, 0xbe, 0x0c, 0x90, 0xe1, 0xbe, 0x95, 0xd1, 0xeb, 0x3d, 0x1a, 0xf8, 0xe3, 0xbe, 0xad, 0xdf, 0xd3, 0xbe, 0x21, 0xb5, 0xf8, 0xbc, 0xda, 0x0f, 0x29, 0xbf, 0x28, 0x32, 0xb3, 0x3e, 0xf0, 0x80, 0x3b, 0xbf, 0x69, 0x0b, 0x9a, 0x3e, 0xc0, 0xc8, 0x67, 0x3d, 0x21, 0x27, 0x5d, 0x3e, 0x68, 0x5f, 0x63, 0x3d, 0xa5, 0x3b, 0x86, 0xbf, 0x0c, 0x36, 0x09, 0xbe, 0x93, 0xc8, 0xbf, 0xbe, 0x1d, 0xb0, 0x1a, 0x3e, 0x7d, 0x55, 0xd3, 0xbe, 0x4f, 0x68, 0x88, 0xbe, 0x5a, 0x96, 0x11, 0x3d, 0x8f, 0xef, 0x89, 0xbd, 0x6c, 0x08, 0x80, 0x3e, 0x37, 0xe1, 0x31, 0xbf, 0x56, 0xff, 0x08, 0xbe, 0xcc, 0x88, 0x7b, 0xbb, 0x8a, 0xed, 0xae, 0x3e, 0x51, 0x81, 0x60, 0xbe, 0x83, 0xf4, 0xbf, 0xbe, 0x93, 0xfc, 0x54, 0x3d, 0xfb, 0x7e, 0x27, 0xbf, 0xd2, 0xe8, 0x43, 0x3e, 0x30, 0x16, 0x81, 0xbd, 0x6c, 0x4c, 0x32, 0x3e, 0xa8, 0x3a, 0x58, 0xbe, 0x41, 0xfb, 0xde, 0xbe, 0x0c, 0x15, 0xe9, 0x3e, 0xe8, 0xac, 0x32, 0xbf, 0x43, 0x79, 0x91, 0x3e, 0x62, 0x4a, 0xd6, 0x3c, 0x47, 0x59, 0xed, 0x3d, 0x7b, 0x1f, 0xee, 0xbd, 0xcd, 0xea, 0x00, 0xbf, 0x3f, 0xbf, 0x90, 0x3e, 0x6e, 0x5e, 0x03, 0xbf, 0xb4, 0x42, 0x1e, 0x3e, 0x62, 0x25, 0x8f, 0x3e, 0x47, 0x27, 0x29, 0xbd, 0xf3, 0x59, 0x02, 0xbd, 0xd2, 0xf4, 0xff, 0xff, 0x04, 0x00, 0x00, 0x00, 0x80, 0x00, 0x00, 0x00, 0x14, 0x5e, 0xe4, 0x3e, 0x3a, 0x9b, 0x0c, 0x3f, 0x29, 0xe1, 0xee, 0x3e, 0x78, 0xc3, 0xf8, 0x3e, 0x4a, 0x7b, 0xf6, 0x3e, 0x6f, 0x4c, 0x20, 0xbe, 0x76, 0x19, 0xcd, 0x3e, 0x2b, 0xd9, 0x03, 0x3f, 0xbb, 0xeb, 0xb4, 0x3e, 0x19, 0x44, 0x08, 0x3f, 0xa3, 0xd9, 0x07, 0xbb, 0x77, 0x8b, 0x0e, 0x3f, 0x46, 0xb1, 0x06, 0x3f, 0x00, 0x00, 0x00, 0x00, 0x64, 0x5a, 0xe7, 0x3e, 0x14, 0x5f, 0x4d, 0x3f, 0x12, 0xf5, 0x11, 0x3f, 0xfa, 0x0a, 0xbd, 0x3e, 0x64, 0xc2, 0xde, 0xbd, 0x73, 0x6c, 0xbe, 0x3e, 0x74, 0xd6, 0x57, 0x3f, 0x80, 0x13, 0x02, 0x3f, 0x65, 0xb6, 0xf2, 0x3e, 0x43, 0x01, 0x43, 0xbe, 0xb7, 0x63, 0x03, 0x3f, 0x6a, 0xda, 0x31, 0x3f, 0x31, 0xf1, 0xe8, 0x3e, 0x70, 0x95, 0x65, 0x3f, 0x95, 0x35, 0xde, 0x3e, 0xe7, 0xa6, 0xc7, 0x3e, 0x39, 0xdb, 0x19, 0x3f, 0x95, 0x0c, 0xeb, 0x3e, 0x5e, 0xf5, 0xff, 0xff, 0x04, 0x00, 0x00, 0x00, 0x40, 0x00, 0x00, 0x00, 0xf8, 0x42, 0x04, 0x3f, 0xf9, 0xd2, 0xe9, 0x3e, 0x28, 0x92, 0x6d, 0xbe, 0x2f, 0x1a, 0x05, 0x3f, 0x96, 0xfe, 0xf2, 0x3e, 0x10, 0xf5, 0x03, 0x3f, 0x7c, 0xd3, 0x01, 0x3f, 0xa2, 0x82, 0x50, 0xbe, 0x19, 0xe8, 0x49, 0xbd, 0x00, 0x71, 0x87, 0x3e, 0xb3, 0x6d, 0x6e, 0xbd, 0xa5, 0xc9, 0xda, 0x3d, 0xb5, 0x9b, 0x59, 0xbd, 0x34, 0xda, 0xef, 0x3e, 0xa8, 0x97, 0x00, 0x3f, 0x5e, 0x94, 0xfb, 0x3e, 0xaa, 0xf5, 0xff, 0xff, 0x04, 0x00, 0x00, 0x00, 0x20, 0x00, 0x00, 0x00, 0x6b, 0x74, 0x1a, 0xbd, 0xf8, 0x9b, 0x03, 0x3f, 0x3f, 0x6c, 0xa4, 0xbc, 0xd0, 0xc4, 0x11, 0xbd, 0xb2, 0x7d, 0xc6, 0x3e, 0xe6, 0x5a, 0xca, 0xbc, 0x6d, 0x99, 0x8a, 0xbe, 0x5f, 0x19, 0xfd, 0x3e, 0xd6, 0xf5, 0xff, 0xff, 0x04, 0x00, 0x00, 0x00, 0x04, 0x00, 0x00, 0x00, 0xd8, 0x3d, 0xbb, 0x3e, 0xe6, 0xf5, 0xff, 0xff, 0x04, 0x00, 0x00, 0x00, 0x00, 0x08, 0x00, 0x00, 0x08, 0xbe, 0x47, 0x3e, 0xbb, 0x20, 0x1d, 0x3f, 0x1b, 0xb7, 0x25, 0x3f, 0x43, 0x83, 0x9f, 0x3e, 0xe4, 0x1e, 0xf1, 0x3e, 0xed, 0x15, 0xa1, 0xbc, 0x04, 0x80, 0x25, 0x3f, 0x14, 0xbc, 0xe9, 0x3e, 0x60, 0x62, 0x70, 0x3f, 0x27, 0xc2, 0xed, 0x3e, 0xbb, 0x5a, 0x90, 0x3e, 0x35, 0xb7, 0xc6, 0x3d, 0xae, 0x05, 0x7a, 0x3e, 0x3b, 0x65, 0x93, 0x3e, 0x6c, 0xe2, 0x32, 0x3f, 0x38, 0x81, 0x9d, 0x3f, 0x5e, 0x8b, 0x36, 0x3f, 0x0f, 0xcf, 0x74, 0x3d, 0xdc, 0xdc, 0xd1, 0x3d, 0xde, 0x3b, 0x99, 0x3e, 0x9c, 0xfe, 0x30, 0x3f, 0x4c, 0x41, 0x26, 0x3a, 0x44, 0x65, 0x08, 0x3f, 0x6a, 0xbc, 0x1d, 0xbf, 0xbe, 0x40, 0x1b, 0x3f, 0x24, 0x1e, 0xc9, 0x3e, 0xf8, 0xcb, 0x98, 0x3e, 0xd7, 0x88, 0xe1, 0x3e, 0x24, 0x67, 0xf9, 0x3e, 0xea, 0x13, 0x6d, 0x3e, 0x58, 0xfc, 0x1a, 0x3f, 0xa0, 0x24, 0xa9, 0x3e, 0x69, 0x71, 0xfe, 0x3e, 0x2d, 0xaf, 0x06, 0x3f, 0x8a, 0x1e, 0x35, 0x3f, 0x4c, 0xc6, 0x64, 0x3f, 0xa7, 0x90, 0x1b, 0x3f, 0xd9, 0xd5, 0x70, 0xbe, 0xd4, 0x38, 0xe0, 0x3e, 0xb7, 0x69, 0xe7, 0x3e, 0xbc, 0x4d, 0xb6, 0x3e, 0x7d, 0x11, 0xfb, 0x3e, 0xc3, 0x57, 0x93, 0xbc, 0x3c, 0x5f, 0xf7, 0x3e, 0xc9, 0xbd, 0xe0, 0x3e, 0x59, 0xd2, 0x34, 0xbe, 0xe9, 0xac, 0x0d, 0x3e, 0xe7, 0x41, 0xb1, 0x3f, 0x7c, 0x19, 0xf6, 0x3e, 0x34, 0xa9, 0xd8, 0x3e, 0xc7, 0x3d, 0x0f, 0xbf, 0xf2, 0xdc, 0xfb, 0x3e, 0x41, 0xb1, 0xfa, 0x3e, 0x51, 0x7f, 0xad, 0x3e, 0xed, 0xb8, 0xb2, 0x3e, 0xc5, 0x75, 0x49, 0xbf, 0xec, 0x2d, 0xb5, 0x3e, 0xca, 0x41, 0x5a, 0x3f, 0x83, 0x09, 0x8c, 0x3c, 0x2e, 0x16, 0xeb, 0x3e, 0x76, 0x6c, 0xab, 0x3e, 0x84, 0xab, 0x5a, 0x3e, 0x65, 0x86, 0x08, 0x3f, 0xa7, 0x9a, 0x9b, 0x3d, 0x75, 0x7e, 0xfb, 0x3d, 0x96, 0x1c, 0x46, 0x3e, 0x37, 0x14, 0xef, 0xbe, 0xcb, 0xfa, 0x08, 0xbf, 0xe4, 0x79, 0x81, 0x3e, 0x52, 0x68, 0xb8, 0x3e, 0x5b, 0xff, 0x4a, 0xbf, 0x3a, 0xad, 0x18, 0xbe, 0x37, 0x14, 0x13, 0xbf, 0x2b, 0x89, 0x38, 0x3d, 0xc8, 0x10, 0x80, 0xbd, 0x8b, 0x34, 0x26, 0x3d, 0x76, 0xbf, 0xf2, 0x3e, 0x3e, 0x24, 0x40, 0x3e, 0xc6, 0xc9, 0x36, 0x3e, 0xfd, 0xa1, 0x88, 0xbf, 0x49, 0x43, 0xdf, 0x3e, 0xf8, 0x8c, 0x1d, 0x3e, 0x72, 0xe6, 0xc0, 0xbd, 0x92, 0x29, 0xbe, 0x3e, 0xe0, 0x65, 0x15, 0xbf, 0xb9, 0x28, 0x16, 0x3f, 0x9b, 0x96, 0x87, 0xbe, 0xf8, 0x70, 0x30, 0x3f, 0x03, 0xbf, 0xa2, 0x3e, 0xcf, 0xb9, 0xa2, 0x3e, 0x82, 0xde, 0xdd, 0x3e, 0x43, 0x90, 0x13, 0xbf, 0x49, 0x2e, 0x13, 0x3f, 0xe4, 0x60, 0x05, 0x3e, 0xe8, 0xfb, 0xaa, 0x3e, 0xd9, 0x43, 0xa8, 0x3d, 0x61, 0xe8, 0x97, 0x3e, 0x55, 0x61, 0x62, 0x3e, 0xe5, 0x43, 0x96, 0x3f, 0x5e, 0x43, 0x1e, 0x3f, 0xe7, 0x1a, 0x1b, 0x3f, 0x57, 0x58, 0x20, 0xbf, 0xfa, 0x0b, 0xe5, 0x3e, 0x67, 0xed, 0x39, 0x3f, 0x36, 0x57, 0x19, 0x3f, 0x96, 0xd3, 0x3e, 0x3f, 0x65, 0x9c, 0xa4, 0x3e, 0x44, 0xe0, 0x04, 0x3f, 0x38, 0x9d, 0xb1, 0x3d, 0x64, 0xf3, 0x3f, 0xbe, 0x35, 0xf6, 0x38, 0x3f, 0x88, 0xd0, 0x6b, 0x3f, 0xc7, 0xf1, 0x3f, 0x3f, 0x39, 0x01, 0xcc, 0x3e, 0xdf, 0x89, 0x0d, 0x3d, 0x56, 0xc7, 0xa7, 0x3a, 0x1f, 0x7b, 0x3c, 0x3f, 0xae, 0x98, 0x97, 0x3e, 0x9a, 0x78, 0xa5, 0x3e, 0x1c, 0x50, 0xe5, 0xbe, 0x7f, 0x14, 0x43, 0x3e, 0xfa, 0x50, 0x31, 0x3f, 0x6c, 0xc9, 0xdf, 0x3d, 0xf0, 0xbe, 0x17, 0x3f, 0x6b, 0xaf, 0x76, 0xbd, 0x19, 0x5c, 0x51, 0x3e, 0xba, 0x7b, 0x74, 0x3e, 0x40, 0x55, 0x0c, 0x3f, 0xfd, 0x40, 0x29, 0x3e, 0x64, 0xba, 0x2c, 0x3f, 0xfd, 0x65, 0x33, 0x3f, 0x89, 0x77, 0x15, 0x3f, 0xd6, 0x32, 0x6b, 0x3e, 0x28, 0x5a, 0xd8, 0xbe, 0x96, 0xe5, 0xda, 0x3e, 0x5e, 0xc0, 0x0e, 0x3f, 0x16, 0xee, 0xdd, 0x3e, 0xe2, 0x00, 0xa5, 0x3e, 0xa2, 0x36, 0x42, 0xbe, 0xe9, 0xa7, 0xcc, 0x3d, 0x66, 0x85, 0x9a, 0x3e, 0xd0, 0x32, 0xb4, 0x3d, 0x04, 0x17, 0x3b, 0x3f, 0x0a, 0x13, 0xca, 0x3f, 0xf3, 0x4d, 0xc8, 0x3e, 0xf6, 0x77, 0xda, 0x3e, 0x97, 0x59, 0x04, 0xbf, 0x2b, 0x68, 0x1a, 0x3e, 0x89, 0x91, 0x83, 0x3f, 0x3b, 0x41, 0xbd, 0x3e, 0xe0, 0xe2, 0x00, 0x3f, 0xa0, 0x31, 0x2a, 0xbf, 0x6d, 0xd0, 0x02, 0x3f, 0xd0, 0x55, 0x7f, 0x3e, 0x30, 0xab, 0xe7, 0x3e, 0xd4, 0x2b, 0x04, 0x3f, 0x17, 0x8d, 0xea, 0x3e, 0x76, 0xd6, 0xa2, 0x3d, 0x43, 0x5a, 0xf1, 0x3c, 0xae, 0x30, 0x47, 0x3d, 0x84, 0xfa, 0xc1, 0x3e, 0x7e, 0x47, 0xb4, 0x3d, 0x44, 0x00, 0x61, 0x3f, 0x97, 0x9b, 0x3c, 0x3f, 0xc5, 0x35, 0x02, 0x3f, 0x96, 0xef, 0x4a, 0xbd, 0xa9, 0x7f, 0xb1, 0x3e, 0xc4, 0xec, 0x00, 0x3f, 0x37, 0x2e, 0x81, 0x3f, 0x07, 0x05, 0x0c, 0x3f, 0x34, 0x5a, 0xe8, 0xbd, 0x1a, 0x43, 0x22, 0x3f, 0x69, 0x45, 0x2f, 0x3f, 0x36, 0xd9, 0x7d, 0xbe, 0x1a, 0x2f, 0xf7, 0x3d, 0x12, 0x29, 0x70, 0x3f, 0x2e, 0x8e, 0x2f, 0x3f, 0xc8, 0x88, 0x1a, 0xbe, 0x75, 0x10, 0x9b, 0xbe, 0xb2, 0x34, 0xe6, 0x3e, 0x8e, 0x3a, 0x6e, 0x3f, 0xff, 0xf3, 0xb5, 0x3d, 0x66, 0x56, 0x06, 0x3f, 0xcf, 0xc4, 0xfc, 0xbe, 0xc5, 0xb7, 0x1d, 0x3f, 0xc0, 0x6e, 0x53, 0x3f, 0x5f, 0x6e, 0xbf, 0x3c, 0x1d, 0x1b, 0x44, 0x3f, 0x66, 0x1b, 0xd6, 0xbd, 0x85, 0x74, 0x3f, 0x3d, 0xa9, 0x5a, 0x0c, 0x3f, 0x84, 0x53, 0xc7, 0xbd, 0xca, 0x7a, 0x11, 0x3f, 0xb0, 0xd2, 0xf4, 0x3e, 0x0f, 0x61, 0x9c, 0x3f, 0x43, 0xfa, 0x13, 0x3f, 0xfc, 0x8f, 0xd9, 0x3e, 0x23, 0x84, 0x16, 0xbf, 0xba, 0x2a, 0x4e, 0x3f, 0xea, 0xfe, 0xa5, 0x3e, 0x8d, 0xcf, 0x13, 0x3f, 0xe3, 0x36, 0x2c, 0x3f, 0xea, 0x6c, 0xaa, 0xbe, 0xea, 0xa1, 0x46, 0x3e, 0x9f, 0x64, 0x32, 0x3f, 0x17, 0xf4, 0x92, 0x3e, 0x99, 0x2b, 0x32, 0x3f, 0xe8, 0x67, 0x7b, 0x3f, 0xba, 0xe8, 0x10, 0x3f, 0x22, 0x3a, 0x98, 0x3e, 0x79, 0xec, 0x14, 0xbf, 0x08, 0x0a, 0xe3, 0x3d, 0x85, 0x4b, 0x4a, 0x3f, 0x85, 0xe4, 0x4a, 0x3e, 0x6a, 0x14, 0x36, 0xbd, 0x1b, 0xbe, 0xb8, 0xbe, 0x62, 0xf9, 0x2b, 0x3f, 0x00, 0xf7, 0x9b, 0x3e, 0xc3, 0x02, 0xb5, 0x3e, 0x22, 0xe7, 0x3c, 0x3f, 0x9c, 0x85, 0x13, 0x3e, 0xa8, 0x2a, 0xe5, 0x3e, 0xd7, 0xff, 0xd5, 0x3e, 0x94, 0x52, 0xb8, 0x3e, 0x01, 0xdb, 0xb0, 0xbd, 0x11, 0x53, 0x97, 0x3e, 0xab, 0x8b, 0x82, 0xbe, 0xe0, 0x37, 0xed, 0xbe, 0xeb, 0x05, 0x60, 0x3d, 0x81, 0x9f, 0x00, 0x3f, 0xdd, 0xbb, 0x49, 0xbf, 0xfa, 0x22, 0x01, 0xbd, 0x64, 0xda, 0x99, 0xbe, 0xcd, 0x17, 0x99, 0xbe, 0xa5, 0xd5, 0x4a, 0x3e, 0xfe, 0x11, 0xfb, 0xbd, 0x4a, 0x22, 0xe8, 0x3d, 0xf4, 0x6c, 0xc0, 0x3d, 0x2b, 0xbe, 0xdd, 0x3e, 0x97, 0x98, 0x70, 0xbf, 0x9f, 0xfc, 0xcf, 0xbc, 0x95, 0xa3, 0x11, 0x3e, 0x24, 0x8a, 0xca, 0x3e, 0xf2, 0x07, 0x07, 0x3f, 0xa6, 0x93, 0xb1, 0xbe, 0xcf, 0x1e, 0x2e, 0x3f, 0x97, 0x87, 0x28, 0x3d, 0xed, 0x4b, 0x18, 0x3f, 0x1a, 0x0a, 0x51, 0x3c, 0xe8, 0xeb, 0x89, 0x3e, 0x84, 0x5f, 0x4a, 0x3e, 0x65, 0xa9, 0x09, 0xbd, 0x8a, 0x54, 0xba, 0x3e, 0x6d, 0xd9, 0xba, 0x3e, 0x49, 0xd5, 0x1e, 0x3e, 0x03, 0xba, 0xf1, 0x3d, 0x57, 0x2c, 0xa5, 0xbc, 0xe9, 0x7d, 0x74, 0x3e, 0x39, 0xb1, 0x00, 0xbe, 0x34, 0x1f, 0x9b, 0x3d, 0xa5, 0x9b, 0xa3, 0x3c, 0xb7, 0xa2, 0xe9, 0xbd, 0xcf, 0x9a, 0x67, 0x3e, 0x9e, 0x83, 0x8c, 0xbe, 0xdd, 0x48, 0xfb, 0x3d, 0xcc, 0x49, 0x18, 0x3b, 0x92, 0xf6, 0x7f, 0xbe, 0xa5, 0xa2, 0xad, 0xbe, 0x9c, 0xa2, 0xd5, 0x3d, 0x80, 0xfa, 0x01, 0xbe, 0xa8, 0xd3, 0x50, 0xbd, 0x80, 0xed, 0x07, 0x3e, 0xd0, 0xed, 0x89, 0xbe, 0x3e, 0x92, 0x36, 0xbd, 0x49, 0x47, 0x99, 0xbd, 0x6c, 0x82, 0x4d, 0x3e, 0x40, 0x12, 0x74, 0xbe, 0x43, 0xdf, 0x90, 0xbd, 0x6a, 0x22, 0x9f, 0xbe, 0x49, 0x0a, 0xb3, 0xbd, 0x51, 0x7f, 0xa7, 0xbe, 0x24, 0xc9, 0x7e, 0xbe, 0x92, 0x0a, 0x3f, 0x3e, 0xee, 0xbd, 0x23, 0x3d, 0x3a, 0x32, 0x6b, 0xbe, 0x22, 0x39, 0xc3, 0xbe, 0x02, 0xb4, 0x94, 0x3e, 0xca, 0x95, 0x8f, 0xbe, 0x11, 0xcc, 0x20, 0x3d, 0x6d, 0xe8, 0x30, 0x3e, 0xf4, 0x00, 0xa9, 0x3f, 0x27, 0xfe, 0xc2, 0x3e, 0x25, 0xc2, 0x80, 0x3e, 0xf1, 0x93, 0x66, 0xbf, 0x89, 0x2b, 0x26, 0x3f, 0xab, 0x3c, 0x1f, 0x3f, 0x09, 0x5b, 0x3c, 0x3f, 0xa5, 0xe6, 0x85, 0x3e, 0xfc, 0x8e, 0x45, 0xbe, 0x2e, 0x28, 0x86, 0x3e, 0xbd, 0xd9, 0xd5, 0x3d, 0x65, 0x11, 0xa9, 0x3e, 0x10, 0xa8, 0x04, 0x3f, 0xe0, 0x7c, 0x5d, 0x3f, 0xa1, 0xf6, 0x08, 0x3f, 0x20, 0xb6, 0x4c, 0xbe, 0x38, 0x56, 0x87, 0xbf, 0x8a, 0x8a, 0xc9, 0xbe, 0x2f, 0x57, 0x2e, 0x3f, 0x8a, 0x2b, 0x8e, 0xbe, 0x0e, 0x48, 0xe1, 0xbc, 0x30, 0x15, 0x35, 0xbf, 0x5c, 0x35, 0xc0, 0x3e, 0x65, 0x8c, 0xdc, 0x3e, 0x2b, 0xe6, 0x94, 0x3e, 0x17, 0x76, 0xea, 0x3e, 0x08, 0x31, 0x88, 0x3d, 0x7a, 0x7c, 0xc6, 0x3e, 0xd0, 0x05, 0x60, 0x3e, 0x73, 0x8a, 0x0b, 0x3f, 0x42, 0xcb, 0x81, 0x3e, 0x59, 0x0c, 0x48, 0xbe, 0xca, 0x82, 0xbc, 0xbe, 0x2f, 0xeb, 0xab, 0xbe, 0x83, 0xd4, 0x2e, 0xbe, 0x11, 0xce, 0x52, 0xbd, 0x48, 0xfd, 0x07, 0x3e, 0x0d, 0x0e, 0x37, 0xba, 0x90, 0x20, 0xdc, 0xbe, 0x56, 0x74, 0x4e, 0x3e, 0xab, 0xe8, 0x26, 0x3d, 0xd4, 0x3f, 0x15, 0x3a, 0x5a, 0xb1, 0x35, 0x3e, 0xc4, 0x2c, 0xfc, 0x3d, 0xfd, 0x9b, 0x38, 0xbd, 0xc9, 0x0b, 0xa0, 0x3c, 0x05, 0xd2, 0x71, 0xbe, 0x0e, 0x7d, 0xac, 0xbd, 0xc8, 0x08, 0xe9, 0xbd, 0x31, 0x01, 0x6e, 0xbd, 0xa2, 0xad, 0x4a, 0xbe, 0xe9, 0x1f, 0xa6, 0xbe, 0x2f, 0xbd, 0xe1, 0x3d, 0x93, 0xcd, 0xc5, 0xbd, 0x49, 0x2b, 0x71, 0xbe, 0x3d, 0xf5, 0x58, 0x3d, 0x90, 0x26, 0x28, 0xbe, 0x44, 0xe7, 0xa2, 0x3d, 0xb5, 0xa1, 0x45, 0xbe, 0x77, 0xb0, 0x69, 0x3e, 0x3f, 0xe2, 0x72, 0x3c, 0x18, 0xd6, 0xd2, 0xbd, 0x6c, 0x24, 0x13, 0xbb, 0xe6, 0xf9, 0x4e, 0xbe, 0xcb, 0x01, 0x6b, 0xbf, 0x5c, 0xa3, 0xf2, 0xbd, 0xf8, 0x94, 0xc0, 0x3d, 0x4f, 0xe4, 0xbc, 0x3e, 0x8b, 0x0b, 0x93, 0xbf, 0xe2, 0x3f, 0xfd, 0x3d, 0x61, 0x89, 0x70, 0xbe, 0x53, 0x19, 0x80, 0xbe, 0x6e, 0x4c, 0x84, 0x3e, 0xf2, 0x7c, 0xc6, 0x3d, 0xfd, 0x2e, 0x4b, 0x3c, 0x70, 0xe0, 0xc5, 0x3c, 0x38, 0x75, 0x13, 0x3f, 0xdb, 0xbe, 0x82, 0xbf, 0x4a, 0x34, 0x05, 0xbe, 0x5c, 0x45, 0x17, 0x3e, 0x14, 0xc5, 0x24, 0x3f, 0xcc, 0x0f, 0xfe, 0x3d, 0x83, 0xce, 0xc8, 0xbe, 0xd1, 0x2d, 0x50, 0x3f, 0xaf, 0xfe, 0xc0, 0x3d, 0x2c, 0x9d, 0x3c, 0x3f, 0x47, 0x56, 0x96, 0x3b, 0xe4, 0x41, 0x9a, 0x3e, 0x3d, 0x82, 0xd7, 0xbd, 0xbc, 0x6c, 0xaf, 0xbb, 0xfe, 0x06, 0x75, 0x3e, 0x9f, 0xf0, 0x49, 0x3f, 0xa4, 0xfa, 0xd7, 0x3c, 0xdf, 0x4b, 0xef, 0x3e, 0xa3, 0xe1, 0x9f, 0xbe, 0x4e, 0x4c, 0xc4, 0xbe, 0x7e, 0xee, 0x5a, 0xbe, 0xde, 0x18, 0x47, 0x3e, 0xc1, 0xab, 0xb1, 0x3d, 0x03, 0xae, 0x3b, 0xbe, 0x71, 0xb1, 0x33, 0xbe, 0x82, 0xed, 0x4b, 0x3e, 0x99, 0x6e, 0xfd, 0xbd, 0x7a, 0x61, 0x57, 0xbe, 0xdb, 0x42, 0x95, 0x3e, 0x4d, 0x20, 0x90, 0xbe, 0x46, 0x76, 0xcc, 0x3d, 0x7a, 0x03, 0x0a, 0x3e, 0x39, 0x1c, 0x95, 0xbe, 0xda, 0x90, 0x41, 0x3e, 0x47, 0xd0, 0xd4, 0x3d, 0xdc, 0xaa, 0x3a, 0xbe, 0xcf, 0x05, 0x45, 0xbe, 0x4d, 0x6b, 0x88, 0x3e, 0xc0, 0xda, 0xf3, 0xbc, 0xd5, 0xcd, 0x7a, 0x3e, 0x42, 0xcc, 0x18, 0xbc, 0xc8, 0x4d, 0xa6, 0xbb, 0x99, 0x19, 0xcc, 0xbd, 0x1f, 0xd5, 0x96, 0xbe, 0x40, 0x8d, 0x4d, 0x3e, 0x08, 0x4f, 0xe4, 0x3d, 0x13, 0xba, 0x61, 0xbe, 0x0f, 0x99, 0xd4, 0x3d, 0x8d, 0xfd, 0x87, 0x3e, 0x9c, 0xa9, 0xc5, 0xbe, 0x10, 0xdf, 0x05, 0x3f, 0x9b, 0x7f, 0xae, 0x3e, 0x49, 0x56, 0x06, 0x3f, 0x03, 0xdb, 0xb2, 0x3e, 0x5d, 0xfb, 0xfd, 0x3d, 0x2f, 0x88, 0xbd, 0xbe, 0xd0, 0xda, 0x18, 0x3f, 0xcf, 0x36, 0x4d, 0x3e, 0x0b, 0x83, 0xbf, 0x3e, 0x92, 0xf3, 0x18, 0x3f, 0x14, 0xe5, 0x94, 0xbd, 0x26, 0xdc, 0x91, 0x3e, 0x09, 0x04, 0x15, 0x3e, 0x40, 0x32, 0x67, 0xbc, 0xcd, 0x00, 0x14, 0x3f, 0x03, 0x0d, 0x9c, 0x3f, 0x6e, 0xa4, 0x2a, 0x3f, 0x27, 0x2e, 0xed, 0xbd, 0xc6, 0x7d, 0x05, 0xbf, 0xef, 0xff, 0x9e, 0x3e, 0x6c, 0xdf, 0x80, 0x3f, 0x44, 0xaf, 0x5e, 0x3e, 0xf8, 0x32, 0x08, 0x3f, 0xfa, 0xd9, 0x31, 0xbf, 0xbb, 0x67, 0x0a, 0x3f, 0x45, 0xa0, 0xb3, 0x3e, 0x38, 0x79, 0xfd, 0x3e, 0x3b, 0x9a, 0x51, 0x3f, 0x31, 0x6a, 0xf6, 0x3e, 0xa7, 0x38, 0xdf, 0x3e, 0xd3, 0x02, 0x12, 0x3f, 0x75, 0x5e, 0x06, 0x3f, 0xd6, 0x40, 0xd4, 0x3e, 0x75, 0x33, 0x80, 0x3e, 0x08, 0xe9, 0x5b, 0x3f, 0x63, 0xbe, 0xa7, 0x3e, 0x62, 0xf5, 0xf1, 0x3e, 0x56, 0xab, 0x48, 0xbe, 0x38, 0x90, 0xbb, 0x3e, 0x98, 0x77, 0xb0, 0x3e, 0x97, 0x53, 0x5c, 0x3f, 0x52, 0xf8, 0x83, 0x3e, 0x39, 0xd1, 0x5e, 0x3e, 0x53, 0x55, 0xb4, 0x3d, 0x72, 0x9a, 0x6e, 0x3e, 0x66, 0x23, 0x02, 0x3e, 0xb0, 0x78, 0xeb, 0x3e, 0xb9, 0x3f, 0x8a, 0x3f, 0xa5, 0xb5, 0xee, 0x3e, 0x69, 0xf5, 0xfb, 0x3e, 0x0d, 0x5a, 0xe0, 0xbe, 0xc1, 0x41, 0x27, 0x3e, 0xaa, 0x02, 0x6e, 0x3f, 0x4a, 0x74, 0x5f, 0xbe, 0x9b, 0x81, 0x46, 0x3e, 0x12, 0xa2, 0x40, 0xbf, 0x91, 0xaa, 0x52, 0x3e, 0x62, 0x75, 0x1f, 0x3f, 0xfa, 0x16, 0x5e, 0x3e, 0xc2, 0x9d, 0x81, 0x3f, 0x62, 0x56, 0xd5, 0x3e, 0xf6, 0x59, 0xa4, 0x3c, 0x4b, 0x68, 0x29, 0x3f, 0x99, 0xff, 0x9c, 0x3e, 0x90, 0x93, 0x43, 0xbd, 0xd2, 0x25, 0x2d, 0x3f, 0x2f, 0x98, 0x9e, 0x3f, 0x6a, 0x29, 0x41, 0x3f, 0xd9, 0x35, 0x8d, 0x3e, 0x4c, 0x43, 0xb7, 0xbd, 0x24, 0x2d, 0xc8, 0x3e, 0xf4, 0x7e, 0xe4, 0x3e, 0xe7, 0x56, 0x33, 0x3f, 0xbf, 0xe5, 0x03, 0x3f, 0xb0, 0xc2, 0x05, 0xbd, 0x62, 0xa5, 0x0e, 0x3f, 0x39, 0xf2, 0x2e, 0x3f, 0xf3, 0x54, 0x94, 0xbe, 0xe0, 0x4c, 0x3a, 0x3f, 0x3a, 0x41, 0x97, 0x3f, 0x44, 0xe8, 0x2d, 0x3f, 0xbc, 0x8e, 0xf5, 0x3e, 0xc5, 0x77, 0x8e, 0x3d, 0x7d, 0xc8, 0xd8, 0x3e, 0x52, 0x62, 0x54, 0x3f, 0x10, 0xde, 0x48, 0x3e, 0x8e, 0x02, 0x64, 0x3e, 0xe1, 0x46, 0x8f, 0xbe, 0x10, 0xb4, 0xa3, 0x3e, 0xac, 0x62, 0x56, 0x3f, 0x89, 0x27, 0xb4, 0x3e, 0x81, 0x7d, 0x6f, 0x3f, 0x1b, 0x6d, 0x04, 0x3f, 0xd0, 0xbe, 0x56, 0x3e, 0xd5, 0xe0, 0x0e, 0x3e, 0x2e, 0xd3, 0x0b, 0x3e, 0xf2, 0xfd, 0xff, 0xff, 0x04, 0x00, 0x00, 0x00, 0x00, 0x02, 0x00, 0x00, 0xf1, 0x1d, 0xfc, 0xbe, 0x5c, 0x14, 0x86, 0xbe, 0x26, 0x1a, 0xac, 0xbe, 0x23, 0x6e, 0x98, 0x3b, 0x71, 0x89, 0x80, 0x3e, 0xe7, 0x60, 0x06, 0xbf, 0x56, 0x90, 0x24, 0x3e, 0x12, 0x7e, 0x55, 0x3d, 0x40, 0xed, 0xe1, 0xbc, 0x49, 0x49, 0x15, 0xbd, 0x2e, 0xdb, 0x54, 0x3d, 0x0e, 0x1e, 0xb6, 0x3e, 0xc0, 0x30, 0xed, 0xbe, 0x6b, 0x4e, 0xac, 0xbe, 0x24, 0xdc, 0x54, 0xbe, 0x2a, 0xfd, 0x3e, 0xbe, 0xdd, 0x98, 0x6c, 0x3f, 0xeb, 0x18, 0x6d, 0x3e, 0x70, 0x46, 0x84, 0xbf, 0xb6, 0x76, 0x5e, 0x3f, 0x48, 0x67, 0xac, 0x3e, 0x54, 0x5f, 0x53, 0x3e, 0xf0, 0x06, 0xa9, 0x3d, 0xf1, 0xd5, 0x9e, 0xbe, 0x21, 0xe7, 0xe6, 0xbe, 0xef, 0x2c, 0x39, 0x3e, 0xe0, 0x7e, 0xc6, 0x3e, 0x40, 0xd8, 0x24, 0xbf, 0xe3, 0xee, 0xde, 0xbe, 0x42, 0x2f, 0xde, 0x3d, 0xe7, 0xcc, 0xa7, 0x3e, 0x98, 0xf3, 0x20, 0x3f, 0xc7, 0x44, 0x8f, 0x3e, 0xde, 0x0a, 0x00, 0xbe, 0x17, 0x10, 0xe8, 0xbe, 0x95, 0x99, 0x8e, 0xbe, 0xb2, 0x2c, 0xce, 0xbd, 0x38, 0xa9, 0xa3, 0xbe, 0x7d, 0xfd, 0xcb, 0x3d, 0xc9, 0x0e, 0x35, 0xbc, 0xbc, 0xaf, 0x81, 0xbe, 0x37, 0x1d, 0x92, 0x3e, 0x08, 0x2b, 0xc9, 0x3e, 0xf7, 0x60, 0x8d, 0xbc, 0x5d, 0x3f, 0xc8, 0x3c, 0x27, 0xe4, 0xf6, 0xbe, 0x13, 0x33, 0x7a, 0xbe, 0xd8, 0x43, 0x91, 0x3e, 0x71, 0x6e, 0x3f, 0xbe, 0xb3, 0x8e, 0x62, 0xbe, 0x9c, 0xc0, 0xde, 0xbe, 0x1b, 0x5b, 0x82, 0xbd, 0x4d, 0xb6, 0xb3, 0xbe, 0x37, 0x64, 0x74, 0xbe, 0xaf, 0xbf, 0xff, 0xbe, 0xd9, 0x5b, 0xb6, 0x3e, 0xe4, 0xca, 0x97, 0xbe, 0xd8, 0xdb, 0xed, 0x3e, 0x68, 0x62, 0x66, 0xbe, 0x8f, 0xd3, 0x17, 0x3e, 0x00, 0xe8, 0xb3, 0x3b, 0x90, 0x58, 0xdf, 0xbe, 0xfe, 0x23, 0xf9, 0xbe, 0x85, 0x0d, 0x07, 0xbd, 0x30, 0x22, 0x0c, 0x3d, 0x78, 0xa3, 0x56, 0x3f, 0x15, 0xb5, 0x70, 0xbf, 0x08, 0xcb, 0xd3, 0x3e, 0xe8, 0xd5, 0x6a, 0x3f, 0x82, 0x16, 0x3d, 0x3e, 0xaa, 0x1c, 0xfd, 0x3e, 0xb0, 0x1d, 0xde, 0x3d, 0x29, 0xd8, 0xaa, 0xbe, 0xd4, 0xa1, 0xd0, 0x3e, 0xab, 0xa9, 0x51, 0x3e, 0xca, 0xc2, 0x1c, 0xbf, 0x86, 0x66, 0xe9, 0xbe, 0x9e, 0xb2, 0x5d, 0x3f, 0x8e, 0xcc, 0x33, 0x3f, 0x59, 0x8e, 0x4b, 0x3f, 0xde, 0x72, 0x90, 0xbe, 0xf3, 0xa1, 0x91, 0xbe, 0xf7, 0x32, 0xe2, 0x3e, 0xff, 0xfb, 0x9b, 0xbe, 0xea, 0x17, 0xa0, 0x3d, 0x66, 0xc1, 0xb3, 0x3e, 0xb4, 0x1e, 0xed, 0xbe, 0xa5, 0xc9, 0x9f, 0xbd, 0x8e, 0xfc, 0x73, 0xbb, 0x7d, 0x1a, 0xb0, 0x3d, 0xc4, 0x41, 0xb3, 0x3e, 0x0b, 0xb9, 0x95, 0xbe, 0xc6, 0xa7, 0xbb, 0xbe, 0x64, 0xbf, 0x8f, 0xbd, 0xdb, 0xec, 0xb6, 0x3e, 0xd2, 0x16, 0x0d, 0x3e, 0xea, 0xfa, 0x80, 0x3e, 0xa7, 0xfa, 0x05, 0x3e, 0x2c, 0x45, 0x5c, 0x3f, 0xe1, 0xf2, 0x27, 0xbe, 0x8e, 0x53, 0x6e, 0xbe, 0x55, 0x8c, 0x03, 0x3e, 0x48, 0x1c, 0xc0, 0x3d, 0x78, 0xeb, 0x87, 0x3e, 0xa1, 0x9a, 0xd9, 0xbd, 0xb2, 0x43, 0x00, 0xbf, 0x0a, 0x82, 0xcf, 0x3e, 0xe8, 0x2e, 0xf6, 0x3e, 0xc1, 0x42, 0xec, 0x3e, 0x17, 0x20, 0x12, 0xbe, 0x2c, 0x46, 0xc5, 0x3c, 0x13, 0x47, 0x7e, 0x3e, 0x95, 0x5b, 0x41, 0x3f, 0x46, 0x11, 0xec, 0x3e, 0xda, 0x1d, 0x0e, 0xbf, 0xb6, 0x21, 0x99, 0x3e, 0x3e, 0xdd, 0x40, 0x3f, 0x02, 0x08, 0x6f, 0x3f, 0x96, 0x98, 0xfc, 0x3e, 0x77, 0x53, 0x34, 0xbf, 0x45, 0xea, 0x4c, 0x3e, 0xde, 0x0d, 0x73, 0x3f, 0xac, 0x6e, 0x73, 0xbe, 0x66, 0x88, 0x44, 0xbf, 0xcc, 0x01, 0x24, 0xbd, 0x32, 0x24, 0x5a, 0x3f, 0x29, 0xb6, 0xf4, 0x3e, 0x94, 0x51, 0x93, 0x3e, 0x00, 0x00, 0x06, 0x00, 0x08, 0x00, 0x04, 0x00, 0x06, 0x00, 0x00, 0x00, 0x04, 0x00, 0x00, 0x00, 0x20, 0x00, 0x00, 0x00, 0x33, 0xcb, 0x6e, 0xbe, 0x4e, 0xbb, 0x12, 0x3f, 0x65, 0xed, 0xdc, 0xbe, 0x06, 0xf2, 0x11, 0xbf, 0x71, 0x38, 0x34, 0x3f, 0x00, 0x1e, 0xbf, 0xbe, 0x74, 0x29, 0xf1, 0xbd, 0x65, 0xbd, 0x6d, 0x3f, 0xd4, 0xf9, 0xff, 0xff, 0xd8, 0xf9, 0xff, 0xff, 0x0f, 0x00, 0x00, 0x00, 0x4d, 0x4c, 0x49, 0x52, 0x20, 0x43, 0x6f, 0x6e, 0x76, 0x65, 0x72, 0x74, 0x65, 0x64, 0x2e, 0x00, 0x01, 0x00, 0x00, 0x00, 0x14, 0x00, 0x00, 0x00, 0x00, 0x00, 0x0e, 0x00, 0x18, 0x00, 0x14, 0x00, 0x10, 0x00, 0x0c, 0x00, 0x08, 0x00, 0x04, 0x00, 0x0e, 0x00, 0x00, 0x00, 0x14, 0x00, 0x00, 0x00, 0x1c, 0x00, 0x00, 0x00, 0x20, 0x01, 0x00, 0x00, 0x24, 0x01, 0x00, 0x00, 0x28, 0x01, 0x00, 0x00, 0x04, 0x00, 0x00, 0x00, 0x6d, 0x61, 0x69, 0x6e, 0x00, 0x00, 0x00, 0x00, 0x04, 0x00, 0x00, 0x00, 0xc8, 0x00, 0x00, 0x00, 0x80, 0x00, 0x00, 0x00, 0x38, 0x00, 0x00, 0x00, 0x04, 0x00, 0x00, 0x00, 0x9a, 0xff, 0xff, 0xff, 0x10, 0x00, 0x00, 0x00, 0x00, 0x00, 0x00, 0x08, 0x0c, 0x00, 0x00, 0x00, 0x10, 0x00, 0x00, 0x00, 0x54, 0xfa, 0xff, 0xff, 0x01, 0x00, 0x00, 0x00, 0x0c, 0x00, 0x00, 0x00, 0x03, 0x00, 0x00, 0x00, 0x0b, 0x00, 0x00, 0x00, 0x01, 0x00, 0x00, 0x00, 0x04, 0x00, 0x00, 0x00, 0xca, 0xff, 0xff, 0xff, 0x10, 0x00, 0x00, 0x00, 0x00, 0x00, 0x00, 0x08, 0x10, 0x00, 0x00, 0x00, 0x14, 0x00, 0x00, 0x00, 0x76, 0xff, 0xff, 0xff, 0x00, 0x00, 0x00, 0x01, 0x01, 0x00, 0x00, 0x00, 0x0b, 0x00, 0x00, 0x00, 0x03, 0x00, 0x00, 0x00, 0x0a, 0x00, 0x00, 0x00, 0x02, 0x00, 0x00, 0x00, 0x05, 0x00, 0x00, 0x00, 0x00, 0x00, 0x0e, 0x00, 0x14, 0x00, 0x00, 0x00, 0x10, 0x00, 0x0c, 0x00, 0x0b, 0x00, 0x04, 0x00, 0x0e, 0x00, 0x00, 0x00, 0x10, 0x00, 0x00, 0x00, 0x00, 0x00, 0x00, 0x08, 0x10, 0x00, 0x00, 0x00, 0x14, 0x00, 0x00, 0x00, 0xba, 0xff, 0xff, 0xff, 0x00, 0x00, 0x00, 0x01, 0x01, 0x00, 0x00, 0x00, 0x0a, 0x00, 0x00, 0x00, 0x03, 0x00, 0x00, 0x00, 0x09, 0x00, 0x00, 0x00, 0x03, 0x00, 0x00, 0x00, 0x06, 0x00, 0x00, 0x00, 0x00, 0x00, 0x0e, 0x00, 0x16, 0x00, 0x00, 0x00, 0x10, 0x00, 0x0c, 0x00, 0x0b, 0x00, 0x04, 0x00, 0x0e, 0x00, 0x00, 0x00, 0x18, 0x00, 0x00, 0x00, 0x00, 0x00, 0x00, 0x08, 0x18, 0x00, 0x00, 0x00, 0x1c, 0x00, 0x00, 0x00, 0x00, 0x00, 0x06, 0x00, 0x08, 0x00, 0x07, 0x00, 0x06, 0x00, 0x00, 0x00, 0x00, 0x00, 0x00, 0x01, 0x01, 0x00, 0x00, 0x00, 0x09, 0x00, 0x00, 0x00, 0x03, 0x00, 0x00, 0x00, 0x00, 0x00, 0x00, 0x00, 0x08, 0x00, 0x00, 0x00, 0x07, 0x00, 0x00, 0x00, 0x01, 0x00, 0x00, 0x00, 0x0c, 0x00, 0x00, 0x00, 0x01, 0x00, 0x00, 0x00, 0x00, 0x00, 0x00, 0x00, 0x0d, 0x00, 0x00, 0x00, 0x90, 0x04, 0x00, 0x00, 0x38, 0x04, 0x00, 0x00, 0xe0, 0x03, 0x00, 0x00, 0xa0, 0x03, 0x00, 0x00, 0x64, 0x03, 0x00, 0x00, 0x28, 0x03, 0x00, 0x00, 0xec, 0x02, 0x00, 0x00, 0x90, 0x02, 0x00, 0x00, 0x40, 0x02, 0x00, 0x00, 0xa0, 0x01, 0x00, 0x00, 0x00, 0x01, 0x00, 0x00, 0x60, 0x00, 0x00, 0x00, 0x04, 0x00, 0x00, 0x00, 0xba, 0xfb, 0xff, 0xff, 0x00, 0x00, 0x00, 0x01, 0x14, 0x00, 0x00, 0x00, 0x1c, 0x00, 0x00, 0x00, 0x1c, 0x00, 0x00, 0x00, 0x0d, 0x00, 0x00, 0x00, 0x34, 0x00, 0x00, 0x00, 0x02, 0x00, 0x00, 0x00, 0xff, 0xff, 0xff, 0xff, 0x01, 0x00, 0x00, 0x00, 0xa4, 0xfb, 0xff, 0xff, 0x1b, 0x00, 0x00, 0x00, 0x53, 0x74, 0x61, 0x74, 0x65, 0x66, 0x75, 0x6c, 0x50, 0x61, 0x72, 0x74, 0x69, 0x74, 0x69, 0x6f, 0x6e, 0x65, 0x64, 0x43, 0x61, 0x6c, 0x6c, 0x5f, 0x31, 0x3a, 0x30, 0x00, 0x02, 0x00, 0x00, 0x00, 0x01, 0x00, 0x00, 0x00, 0x01, 0x00, 0x00, 0x00, 0x12, 0xfc, 0xff, 0xff, 0x00, 0x00, 0x00, 0x01, 0x14, 0x00, 0x00, 0x00, 0x1c, 0x00, 0x00, 0x00, 0x1c, 0x00, 0x00, 0x00, 0x0c, 0x00, 0x00, 0x00, 0x78, 0x00, 0x00, 0x00, 0x02, 0x00, 0x00, 0x00, 0xff, 0xff, 0xff, 0xff, 0x08, 0x00, 0x00, 0x00, 0xfc, 0xfb, 0xff, 0xff, 0x5e, 0x00, 0x00, 0x00, 0x73, 0x65, 0x71, 0x75, 0x65, 0x6e, 0x74, 0x69, 0x61, 0x6c, 0x5f, 0x31, 0x5f, 0x31, 0x2f, 0x64, 0x65, 0x6e, 0x73, 0x65, 0x5f, 0x36, 0x5f, 0x31, 0x2f, 0x4d, 0x61, 0x74, 0x4d, 0x75, 0x6c, 0x3b, 0x73, 0x65, 0x71, 0x75, 0x65, 0x6e, 0x74, 0x69, 0x61, 0x6c, 0x5f, 0x31, 0x5f, 0x31, 0x2f, 0x64, 0x65, 0x6e, 0x73, 0x65, 0x5f, 0x36, 0x5f, 0x31, 0x2f, 0x52, 0x65, 0x6c, 0x75, 0x3b, 0x73, 0x65, 0x71, 0x75, 0x65, 0x6e, 0x74, 0x69, 0x61, 0x6c, 0x5f, 0x31, 0x5f, 0x31, 0x2f, 0x64, 0x65, 0x6e, 0x73, 0x65, 0x5f, 0x36, 0x5f, 0x31, 0x2f, 0x42, 0x69, 0x61, 0x73, 0x41, 0x64, 0x64, 0x00, 0x00, 0x02, 0x00, 0x00, 0x00, 0x01, 0x00, 0x00, 0x00, 0x08, 0x00, 0x00, 0x00, 0xae, 0xfc, 0xff, 0xff, 0x00, 0x00, 0x00, 0x01, 0x14, 0x00, 0x00, 0x00, 0x1c, 0x00, 0x00, 0x00, 0x1c, 0x00, 0x00, 0x00, 0x0b, 0x00, 0x00, 0x00, 0x78, 0x00, 0x00, 0x00, 0x02, 0x00, 0x00, 0x00, 0xff, 0xff, 0xff, 0xff, 0x10, 0x00, 0x00, 0x00, 0x98, 0xfc, 0xff, 0xff, 0x5e, 0x00, 0x00, 0x00, 0x73, 0x65, 0x71, 0x75, 0x65, 0x6e, 0x74, 0x69, 0x61, 0x6c, 0x5f, 0x31, 0x5f, 0x31, 0x2f, 0x64, 0x65, 0x6e, 0x73, 0x65, 0x5f, 0x35, 0x5f, 0x31, 0x2f, 0x4d, 0x61, 0x74, 0x4d, 0x75, 0x6c, 0x3b, 0x73, 0x65, 0x71, 0x75, 0x65, 0x6e, 0x74, 0x69, 0x61, 0x6c, 0x5f, 0x31, 0x5f, 0x31, 0x2f, 0x64, 0x65, 0x6e, 0x73, 0x65, 0x5f, 0x35, 0x5f, 0x31, 0x2f, 0x52, 0x65, 0x6c, 0x75, 0x3b, 0x73, 0x65, 0x71, 0x75, 0x65, 0x6e, 0x74, 0x69, 0x61, 0x6c, 0x5f, 0x31, 0x5f, 0x31, 0x2f, 0x64, 0x65, 0x6e, 0x73, 0x65, 0x5f, 0x35, 0x5f, 0x31, 0x2f, 0x42, 0x69, 0x61, 0x73, 0x41, 0x64, 0x64, 0x00, 0x00, 0x02, 0x00, 0x00, 0x00, 0x01, 0x00, 0x00, 0x00, 0x10, 0x00, 0x00, 0x00, 0x4a, 0xfd, 0xff, 0xff, 0x00, 0x00, 0x00, 0x01, 0x14, 0x00, 0x00, 0x00, 0x1c, 0x00, 0x00, 0x00, 0x1c, 0x00, 0x00, 0x00, 0x0a, 0x00, 0x00, 0x00, 0x78, 0x00, 0x00, 0x00, 0x02, 0x00, 0x00, 0x00, 0xff, 0xff, 0xff, 0xff, 0x20, 0x00, 0x00, 0x00, 0x34, 0xfd, 0xff, 0xff, 0x5e, 0x00, 0x00, 0x00, 0x73, 0x65, 0x71, 0x75, 0x65, 0x6e, 0x74, 0x69, 0x61, 0x6c, 0x5f, 0x31, 0x5f, 0x31, 0x2f, 0x64, 0x65, 0x6e, 0x73, 0x65, 0x5f, 0x34, 0x5f, 0x31, 0x2f, 0x4d, 0x61, 0x74, 0x4d, 0x75, 0x6c, 0x3b, 0x73, 0x65, 0x71, 0x75, 0x65, 0x6e, 0x74, 0x69, 0x61, 0x6c, 0x5f, 0x31, 0x5f, 0x31, 0x2f, 0x64, 0x65, 0x6e, 0x73, 0x65, 0x5f, 0x34, 0x5f, 0x31, 0x2f, 0x52, 0x65, 0x6c, 0x75, 0x3b, 0x73, 0x65, 0x71, 0x75, 0x65, 0x6e, 0x74, 0x69, 0x61, 0x6c, 0x5f, 0x31, 0x5f, 0x31, 0x2f, 0x64, 0x65, 0x6e, 0x73, 0x65, 0x5f, 0x34, 0x5f, 0x31, 0x2f, 0x42, 0x69, 0x61, 0x73, 0x41, 0x64, 0x64, 0x00, 0x00, 0x02, 0x00, 0x00, 0x00, 0x01, 0x00, 0x00, 0x00, 0x20, 0x00, 0x00, 0x00, 0x3a, 0xfe, 0xff, 0xff, 0x00, 0x00, 0x00, 0x01, 0x10, 0x00, 0x00, 0x00, 0x10, 0x00, 0x00, 0x00, 0x09, 0x00, 0x00, 0x00, 0x2c, 0x00, 0x00, 0x00, 0xc0, 0xfd, 0xff, 0xff, 0x1f, 0x00, 0x00, 0x00, 0x73, 0x65, 0x71, 0x75, 0x65, 0x6e, 0x74, 0x69, 0x61, 0x6c, 0x5f, 0x31, 0x5f, 0x31, 0x2f, 0x64, 0x65, 0x6e, 0x73, 0x65, 0x5f, 0x34, 0x5f, 0x31, 0x2f, 0x4d, 0x61, 0x74, 0x4d, 0x75, 0x6c, 0x00, 0x02, 0x00, 0x00, 0x00, 0x20, 0x00, 0x00, 0x00, 0x07, 0x00, 0x00, 0x00, 0x86, 0xfe, 0xff, 0xff, 0x00, 0x00, 0x00, 0x01, 0x10, 0x00, 0x00, 0x00, 0x10, 0x00, 0x00, 0x00, 0x08, 0x00, 0x00, 0x00, 0x3c, 0x00, 0x00, 0x00, 0x0c, 0xfe, 0xff, 0xff, 0x2f, 0x00, 0x00, 0x00, 0x73, 0x65, 0x71, 0x75, 0x65, 0x6e, 0x74, 0x69, 0x61, 0x6c, 0x5f, 0x31, 0x5f, 0x31, 0x2f, 0x64, 0x65, 0x6e, 0x73, 0x65, 0x5f, 0x34, 0x5f, 0x31, 0x2f, 0x42, 0x69, 0x61, 0x73, 0x41, 0x64, 0x64, 0x2f, 0x52, 0x65, 0x61, 0x64, 0x56, 0x61, 0x72, 0x69, 0x61, 0x62, 0x6c, 0x65, 0x4f, 0x70, 0x00, 0x01, 0x00, 0x00, 0x00, 0x20, 0x00, 0x00, 0x00, 0xde, 0xfe, 0xff, 0xff, 0x00, 0x00, 0x00, 0x01, 0x10, 0x00, 0x00, 0x00, 0x10, 0x00, 0x00, 0x00, 0x07, 0x00, 0x00, 0x00, 0x1c, 0x00, 0x00, 0x00, 0x64, 0xfe, 0xff, 0xff, 0x0f, 0x00, 0x00, 0x00, 0x61, 0x72, 0x69, 0x74, 0x68, 0x2e, 0x63, 0x6f, 0x6e, 0x73, 0x74, 0x61, 0x6e, 0x74, 0x35, 0x00, 0x01, 0x00, 0x00, 0x00, 0x10, 0x00, 0x00, 0x00, 0x16, 0xff, 0xff, 0xff, 0x00, 0x00, 0x00, 0x01, 0x10, 0x00, 0x00, 0x00, 0x10, 0x00, 0x00, 0x00, 0x06, 0x00, 0x00, 0x00, 0x1c, 0x00, 0x00, 0x00, 0x9c, 0xfe, 0xff, 0xff, 0x0f, 0x00, 0x00, 0x00, 0x61, 0x72, 0x69, 0x74, 0x68, 0x2e, 0x63, 0x6f, 0x6e, 0x73, 0x74, 0x61, 0x6e, 0x74, 0x34, 0x00, 0x01, 0x00, 0x00, 0x00, 0x08, 0x00, 0x00, 0x00, 0x4e, 0xff, 0xff, 0xff, 0x00, 0x00, 0x00, 0x01, 0x10, 0x00, 0x00, 0x00, 0x10, 0x00, 0x00, 0x00, 0x05, 0x00, 0x00, 0x00, 0x1c, 0x00, 0x00, 0x00, 0xd4, 0xfe, 0xff, 0xff, 0x0f, 0x00, 0x00, 0x00, 0x61, 0x72, 0x69, 0x74, 0x68, 0x2e, 0x63, 0x6f, 0x6e, 0x73, 0x74, 0x61, 0x6e, 0x74, 0x33, 0x00, 0x01, 0x00, 0x00, 0x00, 0x01, 0x00, 0x00, 0x00, 0x86, 0xff, 0xff, 0xff, 0x00, 0x00, 0x00, 0x01, 0x10, 0x00, 0x00, 0x00, 0x10, 0x00, 0x00, 0x00, 0x04, 0x00, 0x00, 0x00, 0x1c, 0x00, 0x00, 0x00, 0x0c, 0xff, 0xff, 0xff, 0x0f, 0x00, 0x00, 0x00, 0x61, 0x72, 0x69, 0x74, 0x68, 0x2e, 0x63, 0x6f, 0x6e, 0x73, 0x74, 0x61, 0x6e, 0x74, 0x32, 0x00, 0x02, 0x00, 0x00, 0x00, 0x10, 0x00, 0x00, 0x00, 0x20, 0x00, 0x00, 0x00, 0xc2, 0xff, 0xff, 0xff, 0x00, 0x00, 0x00, 0x01, 0x10, 0x00, 0x00, 0x00, 0x10, 0x00, 0x00, 0x00, 0x03, 0x00, 0x00, 0x00, 0x1c, 0x00, 0x00, 0x00, 0x48, 0xff, 0xff, 0xff, 0x0f, 0x00, 0x00, 0x00, 0x61, 0x72, 0x69, 0x74, 0x68, 0x2e, 0x63, 0x6f, 0x6e, 0x73, 0x74, 0x61, 0x6e, 0x74, 0x31, 0x00, 0x02, 0x00, 0x00, 0x00, 0x08, 0x00, 0x00, 0x00, 0x10, 0x00, 0x00, 0x00, 0x00, 0x00, 0x16, 0x00, 0x18, 0x00, 0x14, 0x00, 0x00, 0x00, 0x10, 0x00, 0x0c, 0x00, 0x08, 0x00, 0x00, 0x00, 0x00, 0x00, 0x00, 0x00, 0x07, 0x00, 0x16, 0x00, 0x00, 0x00, 0x00, 0x00, 0x00, 0x01, 0x10, 0x00, 0x00, 0x00, 0x10, 0x00, 0x00, 0x00, 0x02, 0x00, 0x00, 0x00, 0x1c, 0x00, 0x00, 0x00, 0x9c, 0xff, 0xff, 0xff, 0x0e, 0x00, 0x00, 0x00, 0x61, 0x72, 0x69, 0x74, 0x68, 0x2e, 0x63, 0x6f, 0x6e, 0x73, 0x74, 0x61, 0x6e, 0x74, 0x00, 0x00, 0x02, 0x00, 0x00, 0x00, 0x01, 0x00, 0x00, 0x00, 0x08, 0x00, 0x00, 0x00, 0x00, 0x00, 0x16, 0x00, 0x1c, 0x00, 0x18, 0x00, 0x00, 0x00, 0x14, 0x00, 0x10, 0x00, 0x0c, 0x00, 0x00, 0x00, 0x00, 0x00, 0x08, 0x00, 0x07, 0x00, 0x16, 0x00, 0x00, 0x00, 0x00, 0x00, 0x00, 0x01, 0x14, 0x00, 0x00, 0x00, 0x20, 0x00, 0x00, 0x00, 0x20, 0x00, 0x00, 0x00, 0x01, 0x00, 0x00, 0x00, 0x40, 0x00, 0x00, 0x00, 0x02, 0x00, 0x00, 0x00, 0xff, 0xff, 0xff, 0xff, 0x07, 0x00, 0x00, 0x00, 0x04, 0x00, 0x04, 0x00, 0x04, 0x00, 0x00, 0x00, 0x20, 0x00, 0x00, 0x00, 0x73, 0x65, 0x72, 0x76, 0x69, 0x6e, 0x67, 0x5f, 0x64, 0x65, 0x66, 0x61, 0x75, 0x6c, 0x74, 0x5f, 0x6b, 0x65, 0x72, 0x61, 0x73, 0x5f, 0x74, 0x65, 0x6e, 0x73, 0x6f, 0x72, 0x5f, 0x35, 0x3a, 0x30, 0x00, 0x00, 0x00, 0x00, 0x02, 0x00, 0x00, 0x00, 0x01, 0x00, 0x00, 0x00, 0x07, 0x00, 0x00, 0x00, 0x01, 0x00, 0x00, 0x00, 0x10, 0x00, 0x00, 0x00, 0x0c, 0x00, 0x0c, 0x00, 0x0b, 0x00, 0x00, 0x00, 0x00, 0x00, 0x04, 0x00, 0x0c, 0x00, 0x00, 0x00, 0x09, 0x00, 0x00, 0x00, 0x00, 0x00, 0x00, 0x09
};

const unsigned int lighting_model_tflite_len = 5992;
